1110001011111001 
010001111010000 
1111010000111110 
1110110010001100 
000000011000010 
1101101111110001 
111111110101000 
000101000001000 
000011000100100 
1101111010011011 
001010011001001 
1111100011010010 
001001100010010 
1110101000101101 
1110101010110001 
000000111011001 
001001101111000 
000001000010111 
000010101001000 
000101000001001 
1110011111101001 
010101001001100 
1111010001010111 
1110100001100101 
000111111010001 
001000100000101 
000011001011000 
1110111101011100 
1111000101101000 
000101100111000 
