1111111000101111 
01000111101 
1111111101000011 
1111111011001000 
00000001100 
1111110110111111 
11111111010 
00010100000 
00001100010 
1111110111101001 
00101001100 
11110001101 
00100110001 
1111111010100010 
1111111010101011 
00000011101 
00100110111 
00000100001 
00001010100 
00010100000 
1111111001111110 
01010100100 
1111111101000101 
1111111010000110 
00011111101 
00100010000 
00001100101 
1111111011110101 
1111111100010110 
00010110011 
