0000001111001100001 
0000001000010001111 
0000000110011011100 
0000000000010111100 
0000011100110111010 
11111111111111110111011010010111 
0000001111100001000 
0000011011010011110 
1111111111100101110 
0000000110001111101 
0000000101011010000 
1111010101110110000 
1111111011001111011 
0000000110110110100 
0000011110001100010 
1111101000100011100 
0000100010011011101 
1111110110100010101 
0000000111100001011 
0000000100110011000 
1111110001000111100 
1111111011100111010 
1111101010001001111 
0000100110000100001 
0000001111100011010 
1111100011010101101 
0000000101100101011 
0000010001001101100 
0000010100100001100 
11111111111111110111011010100100 
0000010001001110111 
0000101001000000011 
1111101000011000010 
0001000110101100100 
1111100001101011110 
11111111111111110110011011000111 
1111110100001011001 
1111011101001011010 
1111100000000000100 
1111111100011001101 
1111111100111110011 
0000010100001000010 
0000011111010100010 
0001110001111010111 
1111110111001100111 
0000000000011001100 
1111001011011100101 
0000001001011000011 
1111100011011010010 
0000011010101011100 
1111111110111110100 
0000110110110000010 
1111100101100011001 
0000010100010010010 
0000001110000001000 
0000001001101011000 
1111101000110100001 
1111011100011100100 
1111010001000000110 
0000011001101000011 
0000101101000010011 
0000010000110110100 
0000011010000100011 
0000011010011110001 
0000100011000111110 
1111011000011000110 
1111101111111111110 
1111011101111011011 
1111101110011100010 
0000011100101010111 
0000011101111100101 
1111101100111110010 
0000001111011100011 
1111001111110010101 
0000010011110101001 
1111100011110001000 
1111111001101111001 
0000010100010101001 
0000001010000101000 
0000100101100001001 
1111111000111101110 
0000001001111101011 
0000101100010011110 
1111111101101101110 
0000010110010111011 
1111101111101000000 
1111111011000010101 
1111101000110110110 
1111111111000100101 
0000011011101001100 
0000001011001100100 
0000011101010010011 
11111111111111110111111101101110 
0000001110010011011 
1111100100101101011 
1111011101100100000 
0000111000101100100 
1111011011101111100 
1111101000001100000 
1111011000111111101 
1111111110010010011 
1111111100101001100 
1111111101010111101 
0000010001010001110 
0000011110000000101 
1111101000001101100 
1111110100101011110 
11111111111111110111101100010101 
0000011110010010101 
0000011111010010010 
1111111001011111100 
1111110011111101100 
1111101100100011001 
1111011010001111001 
1111101110010011100 
1111100110011011000 
0000000100110110100 
1111110010111100011 
0000101000100000001 
0000010001101001111 
0000001110010100000 
0000010000010101000 
1111011011101100111 
1111101100101111011 
1111111110111001001 
1111100111010010111 
1111111001110100010 
1111110110001100001 
0000011001100111000 
0000001000000100111 
0000110000111101101 
1111101111100111010 
1111100011111111101 
0001001110011101110 
0000110001100100001 
1111111011010000110 
1111100000010000111 
0000001011001100000 
0000011000110111011 
1111111110100100111 
0000100011011111110 
0000011101111111110 
1111110101001001010 
1111111101011001011 
1111100111011001011 
0000110001100011110 
0000010001000001001 
1111110001110101100 
0000001101011000010 
1111101001100011000 
0000010001010100000 
1111010011001011100 
1111010010110110111 
1111100011000111001 
1111100001010101100 
0000111010100110100 
1111111101000101000 
0000100111111010111 
0000000100100001111 
1111101100001000001 
0000010101100001001 
0000001000100110101 
0000010100011110011 
0000011011100110010 
1111111101011011111 
1111111001101011011 
0000010111111001000 
0000101001111101110 
1111010100000010111 
0000101000000111010 
1111111110001110110 
0000010110000100100 
0000001101111110100 
0000001101101111101 
1111011000010000010 
1111101110111010011 
0000001100000001010 
1111111101011000100 
1111010111111110000 
0000010001111110011 
0000111101111100111 
1111110000001110111 
0000001100100000101 
1111010111010110000 
0000011100011101101 
0000001110010100000 
1111111001011001111 
1111111111010001000 
0000000111110001111 
1111110000111000001 
1111110110101111011 
0001001011010101010 
1111011001011010010 
1111100100100011001 
1111100011010111100 
1111110111010111011 
0000011101000011010 
1111010001101001100 
1111110111110010111 
0000010000000111100 
1111010101110110001 
1111011110111011001 
0000000000110011011 
0000000110001100110 
1111000111011010110 
1111110111111110100 
1111110101010101111 
1111100110010101000 
1111100011010111001 
0000001011001100111 
0000100101000001001 
0000000011110001100 
0000000111010101101 
1111110001110100000 
1111100110100110110 
1111010111011100110 
1111001011111100111 
0000011110000110010 
1111111010011101110 
1111110110111001110 
0000011010111010001 
1111011010100011100 
1111101101001110010 
0000011000110001011 
0000010001000010100 
1111100100010010000 
0000110000001111111 
1111111011000101000 
1111000010101010000 
0000001000101000110 
1111010000101001110 
1111010011000100000 
1111010100111001001 
0000000001101111111 
0000000111000000100 
1111101110010110101 
0000110111100111100 
0000001111111101001 
0000000101100110011 
1111110001010101111 
0000011100011010011 
1111011111111000011 
1111100011111011010 
1111101110010010010 
0000000001001000111 
0000110011100111100 
0000010100111010000 
1111111111000111101 
1111110110111110100 
0000011110000011011 
1111100101100100111 
0000111011100010001 
1111001100000110111 
0000000010001101101 
0000010001001001100 
0000001101000000001 
1111011101111110001 
1111101000101011101 
1111110010001101001 
1111101010011011100 
0000101110001010000 
1111101001101101010 
0000101000001110100 
1111110101111010011 
0000010101101111011 
0000101011100111101 
0000001111011101011 
0000010100110010000 
1111111001100100000 
0000100100110100010 
1111111110100001001 
1111110011010111111 
0000101100011010000 
1111100111101010110 
1111100110100010010 
1111110100011111011 
1111110101011000100 
1111101100001101011 
1111111010111100000 
0000001010011011110 
1111101111111001010 
0000001100000010001 
0000101111111010101 
1111100011100001101 
0000001100000010011 
0000010010100110101 
1111111001011110001 
1111111010101001000 
0001000000110001110 
0000111001100110110 
0000001011100010111 
1111011110110110011 
0000010101111110110 
0000010000101100100 
0000010101100100010 
0000001010011000111 
1111001110100001110 
1111100010010011000 
0000001011011001110 
1111011101011010011 
